 
function [y1] = myNeuralNetworkFunction_Bayesian(x1)
%MYNEURALNETWORKFUNCTION neural network simulation function.
%
% Generated by Neural Network Toolbox function genFunction, 29-May-2015 15:28:39.
%
% [y1] = myNeuralNetworkFunction(x1) takes these arguments:
%   x = 7xQ matrix, input #1
% and returns:
%   y = 1xQ matrix, output #1
% where Q is the number of samples.
%#ok<*RPMT0>
% ===== NEURAL NETWORK CONSTANTS =====
% Input 1
x1_step1_xoffset = [-0.99895215;-1.001727343;0.000440544;-0.998576641;-1.001581073;-0.001013768;-179.9980774];
x1_step1_gain = [1.00063943010959;0.999133741554302;2.00003351056147;1.00071158949955;0.997499594200956;1.9929803842799;0.00555575759994027];
x1_step1_ymin = -1;
% Layer 1
b1 = [0.068689027705257977;0.054556601072111251;-0.23512432481986267;-0.78518470105278027;-0.56417491639497441;-0.0073113170458413571;0.0067926374898368384;0.468165332383844;0.0042391574187404402;-0.0090493387139415175;0.12849671845916788;0.00063936308476395703;-0.4771299050862538;0.002655643821017573;-0.0026771291878113623;0.015999810247533351;-0.012838950644626684;-0.00015440939241436637;0.05563765013390129;5.7178503043753688;-0.017347700965962005;0.44901681658066062;0.0031176064929854838;-0.55633106572870084;0.13438031626498681;-0.32189993130630817;-0.010848888714351839;2.4397517595497495;1.680928752198066;0.0015909324452531418;-0.0039235994706013121;0.35539216305509402;0.37515579062015642;-0.28193888774893217;0.0064373821207349682;-1.0305440272021764;-0.0052531763290962364;0.024703651244659803;-0.0016714615396453145;-0.083021743068974155;-0.89279766927302229;-0.074195194283725313;0.004794764271718645;-0.58670644107628567;0.12394481923291921;-0.012274000387721412;-0.046040523136856089;0.029745632045150978;-0.32185641494222061;0.00035325246181736579];
IW1_1 = [0.15310263414438402 0.035989273348661456 -0.0034944242724823053 0.16537667727328811 0.087070264418737872 -0.059381312215754087 -0.1063816470760425;0.13197420263536819 0.014120229441180528 0.011571310883756741 0.13739426175539188 0.08039215286397304 -0.044548148287580039 -0.084031667857361408;-1.1425645005573322 0.78588556480458804 0.092007492568325466 -0.51654874845402954 0.49079480291735461 0.59100504597570369 1.3960081434298779;0.43372577934910106 -0.59374504178002485 0.062350321469235435 -0.21145198344613905 -1.2573246355688148 0.14922036370568567 -0.16353637363924833;-0.58473932065650336 0.071841068212132334 0.23420402433054052 -0.048588160734982171 -0.64786881642033334 0.45713226628371151 -1.4114163219599556;-0.094291146206107165 -0.018715581970599384 -0.031204737957317027 -0.11816976649630684 -0.021004680743578155 0.015140934493851959 0.048255771902989193;0.10172249287003382 -1.1243567658011526e-05 0.081813346087042341 0.092735151192658891 0.048372728250034358 0.023964909556353452 -0.024906019746057259;-0.49886008310009461 0.68687016581275429 0.63708111866180939 0.87814175764908209 -0.25090151927458604 0.92152587752649828 -0.41899216694595787;0.029494302867453494 0.010880389595691332 -0.019198772934255461 0.026804133441711401 -0.042569988711635198 -0.041965740214972007 -0.0024226595370547914;0.024710145367733367 0.079189465757177516 -0.060098124506012741 0.0082452350507371697 0.07066533359772581 -0.074632573968733004 -0.087695026394041489;0.29340180216705564 0.096298460783031101 0.12362729929367391 0.23273185331495791 0.18194919127607143 0.054769562259123772 -0.13556073554698472;-0.0083508175586681464 0.012506489073838587 -0.030632505575067456 -0.0089315466041693919 -0.028190220817994712 -0.021902113104657513 -0.011018026492035468;-0.61133120686254949 -0.63831522967483911 0.56252677250570449 -0.62912337799784601 -0.22863324767975601 -0.20976617422448146 1.6900818520530516;0.013190093853268707 -0.0093367645975662092 0.041078992135358393 0.014290633166864455 0.030426661945547166 0.025614917492431277 0.0086035343282189636;0.053961770732013553 0.048386312896293728 -0.047605228070100924 0.037517633812057791 0.034642488126521799 -0.063718976588655801 -0.072907297762298304;0.13289990527804899 -0.00075029039492777345 0.10466044753453972 0.11429468917632923 0.075296908995040032 0.051330251859131322 -0.03226439986291485;-0.10380995970718368 -0.017217601409414508 -0.022744285415482436 -0.12153180302291898 -0.029626825360298693 0.020554803129512619 0.057771141501237619;-0.04569454285690612 0.17936837303139219 0.13901003233999862 -1.2444646243410382 -0.41921460897207385 -0.65550646194714834 0.042490706660703231;0.15639728980697007 0.025174524719187991 0.080315718271412331 0.14622350297697503 0.089474601343849366 0.0071650191320882474 -0.077423225761804437;-0.39013630231628843 0.35537591655637152 -1.6275738915372577 0.34152749288722106 -2.1162620969942529 -2.1185200747173409 0.2602583700728599;0.037802287594222994 -0.014394782548929603 0.069343430779239643 0.023318310452483035 0.097641773533571397 0.075614708180877968 0.0020055756523154828;0.39810018149196247 -0.13862565774271321 0.39989414254551298 0.044901525512380545 0.42541899828364671 1.0098701661316309 -0.66089861149709384;-0.0058602563295910553 0.0073781402901595535 -0.03529078913004309 -0.0086427171993423268 -0.031104024462131102 -0.031033253063433779 -0.0089328840540785631;-1.0085050586449968 -0.46280655421652866 -0.80392975509988918 -0.38640467211308066 0.1241753688310098 -0.29956158089193502 0.50117309333871074;0.28572986824828672 -0.35267976616891322 0.17601099071707077 0.13255355095535096 -0.65310482768107925 0.13725521474897853 1.0470067929755205;-0.56155110040863621 0.41514892906286505 0.061588773292806098 -1.0116996365570532 0.45644854929071593 0.89626397482962827 0.91559646480689094;-0.53127383420983254 -0.55095422185618803 -0.054037668480358202 -0.3389485462749634 -0.53786676042301318 -0.13826824763034423 0.26264597927502281;0.60877906331706266 -0.59004330054323806 -1.8222839785579135 -0.35655549189621211 0.10001602678011984 -0.5865437991036071 0.31730159914383604;0.33838062600882668 -0.47254002922769672 -0.80283648077402325 0.14247056702004657 -0.39521970006531359 -0.73245204619411308 0.059136245719502926;0.054234522007529012 -0.0083040535929635988 0.048903091784925842 0.054011202233641649 0.039321891933001119 0.0068615056498996041 -0.0051489498884761987;-0.020396124890018276 0.047229080378102355 -0.082358872842664174 -0.021674461130469766 -0.045029117835802983 -0.078252053900166776 -0.039646988859978596;0.1782937717813457 -0.56750837487484806 0.55601352841253215 -0.00041057188515863333 -0.52100896294659527 0.41011860226126901 -0.53187075778312787;-0.73135480720930757 0.28021244890712876 -0.29535356296585163 0.59025421209760986 -0.93739008740293728 -0.29012548570939883 0.81025789888903632;-0.24793156021545137 -0.84581738615438817 -0.51439434467146261 -0.39460308649919873 -0.43180164626978551 -0.55388176297482594 -1.5428465388709254;-0.033042419728463793 -0.011269976533575346 0.0090885088925522963 -0.039975992854005507 0.012683980755103075 0.030479442248012002 0.019356057101757296;-1.2727076362614576 1.5924933501703282 0.1352127619198113 0.39564047175404249 0.2550201633897094 -0.12714786107824094 0.54440395896617211;0.03728225030712673 0.0035593180829722676 -0.0015359664612756543 0.046918950383151761 -0.0037194089919724998 -0.025908569561687876 -0.016006524687972118;0.10854780051876324 0.0090787854313289264 0.042066814829438165 0.12818463960898144 0.052785770189169835 -0.012114068353478419 -0.054709021173738298;-0.028516207552726412 -0.00045996115830174291 0.0040562966077386494 -0.024114963879846456 0.00454232356481002 0.019313408703030919 0.011000420355251223;-0.17321538811886456 -0.047037153571292477 -0.01142735701765403 -0.17034656489350822 -0.098536998099342757 0.054826165153524363 0.11874924575030989;-0.44402545685354561 0.24742565090905735 0.35388210019584859 0.022139298192312987 -0.79334383756831184 0.89419963244766099 -0.74592381500227689;-0.15766000330171898 -0.030913626642161546 -0.044048136062999281 -0.16176346623343765 -0.097104170899881673 0.033684994958041121 0.10032661158476754;0.049571561133018194 -0.0022447541092087868 0.037531356140994121 0.045046542619041785 0.019754582209752396 0.00011445669140910406 -0.0071508795790805888;0.25040087988426296 -0.33621142162740691 0.030677982258948178 0.27859300486666333 -0.38623420154892069 0.49738045179293972 0.18924793268753873;0.28613391119067627 0.11151037873341479 -0.31982527157950169 0.32319667380793832 0.18546280458784867 -0.28453562154526896 -0.26962153822806201;-0.11684092034125514 -0.0067454551383522698 -0.094132777733104092 -0.11721533841921529 -0.059139300932833247 -0.036807379420429318 0.033561461888645804;-0.34905787405305461 -0.10105461919336522 0.48373183711117429 -0.5281529027299221 -0.23914091278966249 0.33514181777467794 0.19032473447646828;0.11865705097318328 0.021598498876462719 0.03167483436982247 0.12282371779847652 0.060942362980215332 -0.017530731245191847 -0.070654279169307554;-0.80984860921331903 -0.55322638578855599 0.65968863094176322 -0.097680544035125633 -0.63461904798409186 0.31259033562551991 -0.3455001211367586;-0.072182234352061933 0.0071470246077431536 -0.053179762622932003 -0.076728448341436273 -0.034555200237448715 -0.012478976413393293 0.017665513437310709];
% Layer 2
b2 = -0.50277138429200774;
LW2_1 = [0.26711015861092541 0.2166676495832775 0.9459917616642245 1.2240468141775964 1.0485708229126649 -0.16917663002165828 0.1632348271423652 -0.72950574382832845 0.010776759349640621 0.064560821412065678 0.42417906480148793 -0.030760076280555462 0.58615146457147049 0.041267864099826142 0.068115167079517286 0.206609907318548 -0.18218905722251208 0.94701404778099363 0.25353880354324737 1.7930193852464467 0.096331945216132753 0.99850269822771709 -0.031591767227109782 0.79747108395108024 -1.5875668684091191 -0.57964398241722692 -0.77897622091329399 0.55707210847909749 -1.8577277858211036 0.096269947105878745 -0.059697666918362167 -0.96383297164332304 1.2745587677409036 -0.7626834573873662 -0.038756838176944287 -1.1268619447541464 0.051599148705895416 0.19979874243547985 -0.030066991361416461 -0.28237591716486388 -1.0664561732591835 -0.2667076849405462 0.078517121281044988 0.74991327794054652 0.64042502460429118 -0.19370017445991952 -0.82954269515615642 0.19071229922965444 0.77977413257136696 -0.12232456538041224];
% Output 1
y1_step1_ymin = -1;
y1_step1_gain = 0.0222617987533393;
y1_step1_xoffset = 0.025;
% ===== SIMULATION ========
% Dimensions
Q = size(x1,2); % samples
% Input 1
xp1 = mapminmax_apply(x1,x1_step1_gain,x1_step1_xoffset,x1_step1_ymin);
% Layer 1
a1 = tansig_apply(repmat(b1,1,Q) + IW1_1*xp1);
% Layer 2
a2 = repmat(b2,1,Q) + LW2_1*a1;
% Output 1
y1 = mapminmax_reverse(a2,y1_step1_gain,y1_step1_xoffset,y1_step1_ymin);
end
% ===== MODULE FUNCTIONS ========



 